
#ifndef FALL_DETECTION_MODEL_H
#define FALL_DETECTION_MODEL_H

// Auto-generated from fall_detection_model (1).tflite
const unsigned int fall_detection_model_data_len = 3160;

const unsigned char fall_detection_model_data[] = {
  0x1c, 0x00, 0x00, 0x00, 0x54, 0x46, 0x4c, 0x33, 0x14, 0x00, 0x20, 0x00,
  0x1c, 0x00, 0x18, 0x00, 0x14, 0x00, 0x10, 0x00, 0x0c, 0x00, 0x00, 0x00,
  0x08, 0x00, 0x04, 0x00, 0x14, 0x00, 0x00, 0x00, 0x1c, 0x00, 0x00, 0x00,
  0x8c, 0x00, 0x00, 0x00, 0xe4, 0x00, 0x00, 0x00, 0x50, 0x06, 0x00, 0x00,
  0x60, 0x06, 0x00, 0x00, 0xf4, 0x0b, 0x00, 0x00, 0x03, 0x00, 0x00, 0x00,
  0x01, 0x00, 0x00, 0x00, 0x04, 0x00, 0x00, 0x00, 0x62, 0xf9, 0xff, 0xff,
  0x0c, 0x00, 0x00, 0x00, 0x1c, 0x00, 0x00, 0x00, 0x3c, 0x00, 0x00, 0x00,
  0x0f, 0x00, 0x00, 0x00, 0x73, 0x65, 0x72, 0x76, 0x69, 0x6e, 0x67, 0x5f,
  0x64, 0x65, 0x66, 0x61, 0x75, 0x6c, 0x74, 0x00, 0x01, 0x00, 0x00, 0x00,
  0x04, 0x00, 0x00, 0x00, 0x90, 0xff, 0xff, 0xff, 0x0a, 0x00, 0x00, 0x00,
  0x04, 0x00, 0x00, 0x00, 0x08, 0x00, 0x00, 0x00, 0x6f, 0x75, 0x74, 0x70,
  0x75, 0x74, 0x5f, 0x30, 0x00, 0x00, 0x00, 0x00, 0x01, 0x00, 0x00, 0x00,
  0x04, 0x00, 0x00, 0x00, 0x52, 0xfa, 0xff, 0xff, 0x04, 0x00, 0x00, 0x00,
  0x0c, 0x00, 0x00, 0x00, 0x6b, 0x65, 0x72, 0x61, 0x73, 0x5f, 0x74, 0x65,
  0x6e, 0x73, 0x6f, 0x72, 0x00, 0x00, 0x00, 0x00, 0x02, 0x00, 0x00, 0x00,
  0x34, 0x00, 0x00, 0x00, 0x04, 0x00, 0x00, 0x00, 0xdc, 0xff, 0xff, 0xff,
  0x0d, 0x00, 0x00, 0x00, 0x04, 0x00, 0x00, 0x00, 0x13, 0x00, 0x00, 0x00,
  0x43, 0x4f, 0x4e, 0x56, 0x45, 0x52, 0x53, 0x49, 0x4f, 0x4e, 0x5f, 0x4d,
  0x45, 0x54, 0x41, 0x44, 0x41, 0x54, 0x41, 0x00, 0x08, 0x00, 0x0c, 0x00,
  0x08, 0x00, 0x04, 0x00, 0x08, 0x00, 0x00, 0x00, 0x0c, 0x00, 0x00, 0x00,
  0x04, 0x00, 0x00, 0x00, 0x13, 0x00, 0x00, 0x00, 0x6d, 0x69, 0x6e, 0x5f,
  0x72, 0x75, 0x6e, 0x74, 0x69, 0x6d, 0x65, 0x5f, 0x76, 0x65, 0x72, 0x73,
  0x69, 0x6f, 0x6e, 0x00, 0x0e, 0x00, 0x00, 0x00, 0x68, 0x05, 0x00, 0x00,
  0x60, 0x05, 0x00, 0x00, 0x30, 0x05, 0x00, 0x00, 0x18, 0x03, 0x00, 0x00,
  0x04, 0x03, 0x00, 0x00, 0xd4, 0x02, 0x00, 0x00, 0x84, 0x02, 0x00, 0x00,
  0xb4, 0x00, 0x00, 0x00, 0xac, 0x00, 0x00, 0x00, 0xa4, 0x00, 0x00, 0x00,
  0x9c, 0x00, 0x00, 0x00, 0x94, 0x00, 0x00, 0x00, 0x74, 0x00, 0x00, 0x00,
  0x04, 0x00, 0x00, 0x00, 0x06, 0xfb, 0xff, 0xff, 0x04, 0x00, 0x00, 0x00,
  0x60, 0x00, 0x00, 0x00, 0x0c, 0x00, 0x00, 0x00, 0x08, 0x00, 0x0e, 0x00,
  0x08, 0x00, 0x04, 0x00, 0x08, 0x00, 0x00, 0x00, 0x10, 0x00, 0x00, 0x00,
  0x28, 0x00, 0x00, 0x00, 0x00, 0x00, 0x06, 0x00, 0x08, 0x00, 0x04, 0x00,
  0x06, 0x00, 0x00, 0x00, 0x04, 0x00, 0x00, 0x00, 0x01, 0x00, 0x00, 0x00,
  0xea, 0x03, 0x00, 0x00, 0x0c, 0x00, 0x18, 0x00, 0x14, 0x00, 0x10, 0x00,
  0x0c, 0x00, 0x04, 0x00, 0x0c, 0x00, 0x00, 0x00, 0x14, 0xa7, 0x19, 0x14,
  0x89, 0x5c, 0x17, 0x21, 0x02, 0x00, 0x00, 0x00, 0x02, 0x00, 0x00, 0x00,
  0x04, 0x00, 0x00, 0x00, 0x06, 0x00, 0x00, 0x00, 0x32, 0x2e, 0x31, 0x38,
  0x2e, 0x30, 0x00, 0x00, 0x72, 0xfb, 0xff, 0xff, 0x04, 0x00, 0x00, 0x00,
  0x10, 0x00, 0x00, 0x00, 0x31, 0x2e, 0x31, 0x34, 0x2e, 0x30, 0x00, 0x00,
  0x00, 0x00, 0x00, 0x00, 0x00, 0x00, 0x00, 0x00, 0xe0, 0xf5, 0xff, 0xff,
  0xe4, 0xf5, 0xff, 0xff, 0xe8, 0xf5, 0xff, 0xff, 0xec, 0xf5, 0xff, 0xff,
  0x9e, 0xfb, 0xff, 0xff, 0x04, 0x00, 0x00, 0x00, 0xc0, 0x01, 0x00, 0x00,
  0xf7, 0x80, 0xaf, 0xbe, 0x7e, 0xd9, 0xf6, 0xbe, 0xc1, 0xbe, 0x5e, 0xbe,
  0x67, 0xba, 0xaa, 0x3e, 0x1f, 0x93, 0x5b, 0x3e, 0xff, 0x0f, 0x6d, 0xbe,
  0x54, 0x4e, 0x5e, 0xbe, 0xae, 0xe3, 0x97, 0x3e, 0x16, 0xc2, 0x1b, 0xbe,
  0x9f, 0x3d, 0x66, 0x40, 0xfb, 0x8b, 0xc3, 0x40, 0x86, 0x67, 0x2c, 0xbe,
  0x8a, 0x2f, 0xc0, 0x3d, 0x91, 0x5b, 0xa8, 0xbf, 0x11, 0x5a, 0xfa, 0x3e,
  0x59, 0x39, 0xa7, 0x3d, 0xff, 0x4c, 0x63, 0x3b, 0x79, 0xcc, 0xb7, 0x3e,
  0x0b, 0xb2, 0x95, 0xbe, 0xf1, 0x81, 0xed, 0xbc, 0x00, 0xf0, 0x1d, 0x3e,
  0x88, 0xf5, 0x84, 0x3d, 0x4a, 0x55, 0x83, 0xbe, 0x56, 0xf7, 0x86, 0x3e,
  0xa0, 0xed, 0x91, 0x3c, 0x2c, 0x5f, 0x4a, 0xbe, 0x52, 0xc3, 0xbf, 0xbe,
  0x30, 0x3f, 0xe6, 0x3d, 0x60, 0xa7, 0xee, 0x3c, 0x58, 0x00, 0x40, 0x3e,
  0x30, 0xf2, 0x6a, 0xbe, 0x46, 0xe9, 0x89, 0x3e, 0x80, 0x5c, 0x9e, 0xbe,
  0x68, 0xb9, 0x1d, 0xbd, 0x62, 0xda, 0xff, 0x3e, 0xce, 0xa1, 0x87, 0xbe,
  0x20, 0x7d, 0xc1, 0x3c, 0x4b, 0x95, 0x01, 0x3f, 0xec, 0x7a, 0xfa, 0x3e,
  0xa4, 0x89, 0x36, 0xbe, 0x14, 0x0a, 0x87, 0xbe, 0xa4, 0xdb, 0xc4, 0xbe,
  0xf0, 0xf7, 0xa8, 0x3d, 0x1c, 0xa1, 0x8b, 0xbd, 0xe8, 0x12, 0x3d, 0xbe,
  0x70, 0x1d, 0x0d, 0x3e, 0x00, 0x7a, 0xcb, 0xbb, 0x7e, 0x0e, 0x8d, 0xbe,
  0xba, 0xb6, 0xdf, 0xbe, 0x22, 0xcb, 0x8c, 0x3e, 0x02, 0x88, 0x16, 0x40,
  0xf4, 0x41, 0x92, 0xbe, 0xaa, 0xca, 0x40, 0x40, 0xd9, 0xa5, 0xee, 0xbe,
  0x2f, 0xbe, 0x7c, 0x3e, 0x79, 0x4f, 0xcb, 0xbe, 0x44, 0x47, 0x8a, 0xbd,
  0x54, 0x47, 0x10, 0xbe, 0xca, 0xb5, 0x00, 0xbf, 0xd8, 0x9a, 0xf4, 0x3e,
  0x1a, 0xb0, 0xa4, 0xbe, 0x78, 0xbc, 0xd3, 0xbd, 0x10, 0xfd, 0xe5, 0xbe,
  0x84, 0x63, 0x14, 0xbe, 0xa7, 0x62, 0x11, 0x3d, 0x67, 0xd5, 0xa5, 0xbc,
  0x39, 0x50, 0x96, 0x3d, 0x1a, 0xae, 0xe6, 0x3e, 0xa7, 0xb1, 0xb5, 0xbe,
  0xcc, 0x0e, 0x9e, 0xbd, 0x02, 0x0c, 0xa2, 0x3e, 0x00, 0x44, 0xaf, 0x3e,
  0x18, 0x50, 0xa3, 0xbe, 0xf4, 0x4c, 0x6e, 0x3e, 0xf3, 0xe6, 0xfb, 0x3b,
  0x70, 0x78, 0xed, 0xbe, 0x47, 0x6e, 0xb7, 0xbe, 0x9b, 0x07, 0x9c, 0xbe,
  0x23, 0x8d, 0xdd, 0x3f, 0x89, 0xf3, 0x19, 0x40, 0xde, 0x02, 0x43, 0xc0,
  0xfe, 0x93, 0x24, 0xbe, 0x6d, 0x01, 0x49, 0x3e, 0xa0, 0x33, 0x97, 0xbf,
  0x0a, 0x12, 0x0e, 0x3f, 0x66, 0xa1, 0x04, 0xbe, 0xfa, 0xca, 0xb6, 0x3e,
  0xfe, 0x58, 0x2e, 0x40, 0xc5, 0x50, 0x34, 0x3d, 0xf4, 0x8b, 0x82, 0xbd,
  0x9c, 0xfc, 0xd7, 0x3e, 0x62, 0xba, 0xe4, 0x3e, 0x7f, 0xa1, 0xa8, 0x40,
  0xdc, 0x72, 0xb8, 0x3f, 0x64, 0x37, 0x14, 0xc0, 0xc1, 0x9a, 0x0f, 0x3e,
  0x89, 0x51, 0xa7, 0x3d, 0xd3, 0x7b, 0x34, 0xbe, 0xe0, 0x1b, 0x09, 0xc0,
  0xef, 0xf3, 0xa5, 0xbe, 0x8e, 0x67, 0x4b, 0x40, 0x6f, 0xe8, 0x36, 0x40,
  0x03, 0xd2, 0xf8, 0x3e, 0xd7, 0x62, 0x12, 0xbc, 0x91, 0x4f, 0x75, 0xbe,
  0x47, 0x19, 0x22, 0xbe, 0xbd, 0xc3, 0x35, 0xc0, 0x56, 0x51, 0x46, 0xc0,
  0xcd, 0x05, 0x95, 0x3c, 0xd0, 0x7e, 0x29, 0x3e, 0x17, 0xa5, 0xde, 0x3d,
  0x30, 0x0a, 0xa5, 0xbe, 0x6a, 0xfd, 0xff, 0xff, 0x04, 0x00, 0x00, 0x00,
  0x40, 0x00, 0x00, 0x00, 0xaa, 0x58, 0x05, 0xbd, 0x9c, 0x2b, 0xb7, 0x3f,
  0xc7, 0x0d, 0x87, 0xbc, 0x00, 0x00, 0x00, 0x00, 0x00, 0x00, 0x00, 0x00,
  0x00, 0x00, 0x00, 0x00, 0x00, 0x00, 0x00, 0x00, 0xaf, 0xb7, 0x0d, 0x3e,
  0x00, 0x00, 0x00, 0x00, 0xdc, 0x6c, 0x9e, 0x3c, 0x77, 0x6b, 0xad, 0xbc,
  0xd0, 0x63, 0xc7, 0xbf, 0xcb, 0x92, 0xfd, 0xbe, 0x06, 0x86, 0x21, 0xbe,
  0xf0, 0x1e, 0x83, 0xbe, 0xb2, 0x19, 0xce, 0xbe, 0xb6, 0xfd, 0xff, 0xff,
  0x04, 0x00, 0x00, 0x00, 0x20, 0x00, 0x00, 0x00, 0x00, 0x00, 0x00, 0x00,
  0xc9, 0x39, 0xc5, 0x3e, 0x04, 0xa1, 0x28, 0x3f, 0x8f, 0x83, 0xa9, 0x3e,
  0x82, 0xcd, 0x12, 0xbe, 0x1d, 0x3f, 0x13, 0xbd, 0xe7, 0x07, 0x70, 0xbe,
  0x5a, 0x06, 0x82, 0xbd, 0xe2, 0xfd, 0xff, 0xff, 0x04, 0x00, 0x00, 0x00,
  0x04, 0x00, 0x00, 0x00, 0x15, 0xd6, 0xa3, 0xbf, 0xf2, 0xfd, 0xff, 0xff,
  0x04, 0x00, 0x00, 0x00, 0x00, 0x02, 0x00, 0x00, 0x80, 0x10, 0xca, 0x3e,
  0x78, 0x0b, 0x4f, 0x3e, 0xb0, 0xf1, 0x63, 0x3e, 0xe0, 0xbd, 0xed, 0xbe,
  0x58, 0xa6, 0xbe, 0xbe, 0xa0, 0xa0, 0x58, 0xbd, 0xb4, 0xf0, 0xf4, 0x3e,
  0x20, 0x16, 0xc7, 0xbe, 0x00, 0xe1, 0x9f, 0xbe, 0x18, 0x37, 0x5f, 0xbe,
  0x10, 0x83, 0x68, 0xbe, 0x20, 0xbe, 0x0b, 0xbe, 0xf8, 0x3a, 0xa3, 0xbe,
  0xcc, 0x23, 0x8a, 0xbe, 0x0c, 0x08, 0xf4, 0xbe, 0x28, 0x3f, 0xa0, 0xbe,
  0x2c, 0x6b, 0x98, 0xbe, 0xe0, 0xc0, 0xa5, 0x3e, 0x39, 0x2f, 0xc6, 0xbe,
  0x38, 0xa5, 0x34, 0xbe, 0x64, 0xbf, 0xfd, 0xbe, 0xe4, 0xd1, 0xf1, 0x3e,
  0xb0, 0x8e, 0xff, 0xbd, 0x4a, 0x54, 0x47, 0x3f, 0xc0, 0xe9, 0x0e, 0x3d,
  0xa0, 0x5a, 0x18, 0xbe, 0x54, 0x15, 0xd9, 0x3e, 0x9e, 0x8b, 0xe8, 0x3d,
  0x51, 0x80, 0x89, 0xbf, 0xab, 0xa0, 0xae, 0xbf, 0x7b, 0xcb, 0x34, 0xc0,
  0x9e, 0xea, 0xa2, 0x3c, 0xf0, 0xeb, 0xaf, 0x3e, 0xdf, 0x37, 0x04, 0x3f,
  0x8c, 0x74, 0x82, 0x3e, 0x00, 0xcf, 0x40, 0xbc, 0x00, 0xcd, 0x40, 0xbc,
  0x20, 0xbd, 0xa2, 0x3e, 0x80, 0x4f, 0x10, 0xbe, 0xe7, 0xa1, 0xb8, 0xbe,
  0x14, 0x2b, 0xf2, 0xbe, 0x78, 0xdf, 0x57, 0xbe, 0xac, 0x8b, 0xc6, 0xbe,
  0x2d, 0xd0, 0x0e, 0xc0, 0x4a, 0x10, 0xd6, 0x3d, 0x7b, 0xea, 0x83, 0xc0,
  0x7e, 0x3a, 0x95, 0x3e, 0xab, 0x7d, 0x71, 0x3e, 0x64, 0x1e, 0xa3, 0xbe,
  0x84, 0xc4, 0x53, 0x3f, 0x72, 0x70, 0x85, 0xbc, 0x14, 0xff, 0x87, 0x3e,
  0x40, 0xe9, 0xf7, 0xbe, 0x10, 0x42, 0x72, 0xbe, 0x30, 0xb5, 0xa0, 0x3e,
  0x55, 0xf0, 0xd0, 0xbd, 0x4c, 0x6b, 0xe3, 0xbe, 0x98, 0x60, 0xd5, 0xbe,
  0x08, 0xe3, 0x60, 0xbe, 0x9d, 0x98, 0x5a, 0xbf, 0xac, 0x3c, 0x47, 0xc0,
  0x31, 0xa8, 0x93, 0x3e, 0x3f, 0x13, 0x6a, 0xbd, 0xde, 0x9f, 0x24, 0xbf,
  0x23, 0xa8, 0xce, 0x3e, 0x45, 0xe6, 0xa1, 0x3f, 0xcd, 0xac, 0xc5, 0x3d,
  0xc0, 0xc1, 0x35, 0x3d, 0x50, 0x3b, 0x10, 0xbe, 0x40, 0x24, 0x16, 0xbd,
  0x4c, 0x35, 0x97, 0xbe, 0xf3, 0x7d, 0x0b, 0x3e, 0xd0, 0xaa, 0xd8, 0x3e,
  0x95, 0x3c, 0x35, 0xbe, 0x30, 0xf0, 0xa2, 0x3e, 0xc1, 0x7f, 0xee, 0xbe,
  0x10, 0x4d, 0x08, 0x40, 0xf0, 0x29, 0xbe, 0xbd, 0xee, 0xde, 0xd5, 0xbf,
  0xbb, 0x94, 0x6f, 0x3f, 0x94, 0xc8, 0x1b, 0xbd, 0x58, 0xc1, 0x92, 0xbe,
  0xa4, 0x69, 0xa1, 0x3e, 0x80, 0xb0, 0xdd, 0xbc, 0x40, 0x0b, 0xbf, 0xbe,
  0x08, 0xf2, 0x94, 0x3e, 0x98, 0x3e, 0x06, 0x3e, 0x47, 0x60, 0xb3, 0xbe,
  0xf0, 0x91, 0xbb, 0xbd, 0xdb, 0x78, 0xc5, 0x3e, 0xe2, 0xf7, 0x84, 0x3e,
  0x71, 0xb2, 0xeb, 0xbe, 0x18, 0x16, 0xc8, 0xbe, 0x89, 0xbc, 0x2d, 0x3e,
  0xe8, 0x52, 0xed, 0xbe, 0x71, 0x63, 0x61, 0x3e, 0xdc, 0x63, 0xc5, 0xbe,
  0x06, 0x13, 0x1c, 0xbf, 0x34, 0x01, 0xd0, 0x3e, 0x2c, 0xda, 0xbc, 0x3e,
  0xa8, 0xda, 0x36, 0x3e, 0xfc, 0xde, 0x8f, 0x3e, 0xc4, 0xfa, 0x8d, 0xbe,
  0x8d, 0x75, 0xa8, 0xbd, 0x78, 0x52, 0x16, 0xbe, 0x6c, 0x95, 0xf5, 0xbe,
  0x54, 0xcb, 0xd0, 0x3e, 0x2d, 0x88, 0x10, 0x3d, 0xd0, 0x2c, 0xfd, 0xbb,
  0x6a, 0x14, 0xcb, 0xbe, 0xa8, 0x8e, 0xc2, 0xbe, 0x3f, 0xd8, 0x09, 0xbc,
  0x24, 0x78, 0xbb, 0xbe, 0xf2, 0x4e, 0x05, 0xbf, 0x40, 0xcb, 0xc3, 0x3e,
  0x04, 0x3f, 0xd6, 0xbe, 0xe0, 0xff, 0x32, 0x3d, 0xe0, 0x19, 0xf9, 0x3e,
  0x58, 0xcd, 0xd4, 0x3e, 0xfc, 0xc0, 0x23, 0x3e, 0x00, 0x61, 0x1b, 0xbd,
  0x20, 0xa0, 0xde, 0xbd, 0x40, 0x83, 0x58, 0xbe, 0x15, 0x4a, 0x06, 0xbf,
  0xcc, 0x2d, 0x80, 0xbe, 0x8e, 0x91, 0xe7, 0x3d, 0x10, 0x26, 0x49, 0x3e,
  0xab, 0x40, 0x0e, 0xbf, 0x00, 0x00, 0x06, 0x00, 0x08, 0x00, 0x04, 0x00,
  0x06, 0x00, 0x00, 0x00, 0x04, 0x00, 0x00, 0x00, 0x20, 0x00, 0x00, 0x00,
  0xc3, 0xab, 0xc3, 0xbe, 0x25, 0xb3, 0xd9, 0xbf, 0xf8, 0xfc, 0xd6, 0xbf,
  0xf2, 0xc7, 0xdf, 0xbf, 0x44, 0x42, 0xb2, 0x3f, 0x64, 0x05, 0x1f, 0xbf,
  0xc8, 0x21, 0x1a, 0x3f, 0x0c, 0x26, 0xf9, 0x3e, 0x84, 0xfa, 0xff, 0xff,
  0x88, 0xfa, 0xff, 0xff, 0x0f, 0x00, 0x00, 0x00, 0x4d, 0x4c, 0x49, 0x52,
  0x20, 0x43, 0x6f, 0x6e, 0x76, 0x65, 0x72, 0x74, 0x65, 0x64, 0x2e, 0x00,
  0x01, 0x00, 0x00, 0x00, 0x14, 0x00, 0x00, 0x00, 0x00, 0x00, 0x0e, 0x00,
  0x18, 0x00, 0x14, 0x00, 0x10, 0x00, 0x0c, 0x00, 0x08, 0x00, 0x04, 0x00,
  0x0e, 0x00, 0x00, 0x00, 0x14, 0x00, 0x00, 0x00, 0x1c, 0x00, 0x00, 0x00,
  0x08, 0x01, 0x00, 0x00, 0x0c, 0x01, 0x00, 0x00, 0x10, 0x01, 0x00, 0x00,
  0x04, 0x00, 0x00, 0x00, 0x6d, 0x61, 0x69, 0x6e, 0x00, 0x00, 0x00, 0x00,
  0x04, 0x00, 0x00, 0x00, 0xb0, 0x00, 0x00, 0x00, 0x68, 0x00, 0x00, 0x00,
  0x34, 0x00, 0x00, 0x00, 0x10, 0x00, 0x00, 0x00, 0x00, 0x00, 0x0a, 0x00,
  0x10, 0x00, 0x0c, 0x00, 0x08, 0x00, 0x04, 0x00, 0x0a, 0x00, 0x00, 0x00,
  0x0c, 0x00, 0x00, 0x00, 0x10, 0x00, 0x00, 0x00, 0x01, 0x00, 0x00, 0x00,
  0x01, 0x00, 0x00, 0x00, 0x0a, 0x00, 0x00, 0x00, 0x01, 0x00, 0x00, 0x00,
  0x09, 0x00, 0x00, 0x00, 0x9a, 0xff, 0xff, 0xff, 0x10, 0x00, 0x00, 0x00,
  0x00, 0x00, 0x00, 0x08, 0x0c, 0x00, 0x00, 0x00, 0x10, 0x00, 0x00, 0x00,
  0x30, 0xfb, 0xff, 0xff, 0x01, 0x00, 0x00, 0x00, 0x09, 0x00, 0x00, 0x00,
  0x03, 0x00, 0x00, 0x00, 0x08, 0x00, 0x00, 0x00, 0x01, 0x00, 0x00, 0x00,
  0x03, 0x00, 0x00, 0x00, 0xca, 0xff, 0xff, 0xff, 0x10, 0x00, 0x00, 0x00,
  0x00, 0x00, 0x00, 0x08, 0x10, 0x00, 0x00, 0x00, 0x14, 0x00, 0x00, 0x00,
  0xba, 0xff, 0xff, 0xff, 0x00, 0x00, 0x00, 0x01, 0x01, 0x00, 0x00, 0x00,
  0x08, 0x00, 0x00, 0x00, 0x03, 0x00, 0x00, 0x00, 0x07, 0x00, 0x00, 0x00,
  0x02, 0x00, 0x00, 0x00, 0x04, 0x00, 0x00, 0x00, 0x00, 0x00, 0x0e, 0x00,
  0x16, 0x00, 0x00, 0x00, 0x10, 0x00, 0x0c, 0x00, 0x0b, 0x00, 0x04, 0x00,
  0x0e, 0x00, 0x00, 0x00, 0x18, 0x00, 0x00, 0x00, 0x00, 0x00, 0x00, 0x08,
  0x18, 0x00, 0x00, 0x00, 0x1c, 0x00, 0x00, 0x00, 0x00, 0x00, 0x06, 0x00,
  0x08, 0x00, 0x07, 0x00, 0x06, 0x00, 0x00, 0x00, 0x00, 0x00, 0x00, 0x01,
  0x01, 0x00, 0x00, 0x00, 0x07, 0x00, 0x00, 0x00, 0x03, 0x00, 0x00, 0x00,
  0x00, 0x00, 0x00, 0x00, 0x06, 0x00, 0x00, 0x00, 0x05, 0x00, 0x00, 0x00,
  0x01, 0x00, 0x00, 0x00, 0x0a, 0x00, 0x00, 0x00, 0x01, 0x00, 0x00, 0x00,
  0x00, 0x00, 0x00, 0x00, 0x0b, 0x00, 0x00, 0x00, 0xf8, 0x03, 0x00, 0x00,
  0xa0, 0x03, 0x00, 0x00, 0x48, 0x03, 0x00, 0x00, 0x0c, 0x03, 0x00, 0x00,
  0xb0, 0x02, 0x00, 0x00, 0x58, 0x02, 0x00, 0x00, 0x0c, 0x02, 0x00, 0x00,
  0x78, 0x01, 0x00, 0x00, 0xdc, 0x00, 0x00, 0x00, 0x60, 0x00, 0x00, 0x00,
  0x04, 0x00, 0x00, 0x00, 0x4a, 0xfc, 0xff, 0xff, 0x00, 0x00, 0x00, 0x01,
  0x14, 0x00, 0x00, 0x00, 0x1c, 0x00, 0x00, 0x00, 0x1c, 0x00, 0x00, 0x00,
  0x0b, 0x00, 0x00, 0x00, 0x34, 0x00, 0x00, 0x00, 0x02, 0x00, 0x00, 0x00,
  0xff, 0xff, 0xff, 0xff, 0x01, 0x00, 0x00, 0x00, 0x34, 0xfc, 0xff, 0xff,
  0x1b, 0x00, 0x00, 0x00, 0x53, 0x74, 0x61, 0x74, 0x65, 0x66, 0x75, 0x6c,
  0x50, 0x61, 0x72, 0x74, 0x69, 0x74, 0x69, 0x6f, 0x6e, 0x65, 0x64, 0x43,
  0x61, 0x6c, 0x6c, 0x5f, 0x31, 0x3a, 0x30, 0x00, 0x02, 0x00, 0x00, 0x00,
  0x01, 0x00, 0x00, 0x00, 0x01, 0x00, 0x00, 0x00, 0xa2, 0xfc, 0xff, 0xff,
  0x00, 0x00, 0x00, 0x01, 0x14, 0x00, 0x00, 0x00, 0x1c, 0x00, 0x00, 0x00,
  0x1c, 0x00, 0x00, 0x00, 0x0a, 0x00, 0x00, 0x00, 0x54, 0x00, 0x00, 0x00,
  0x02, 0x00, 0x00, 0x00, 0xff, 0xff, 0xff, 0xff, 0x01, 0x00, 0x00, 0x00,
  0x8c, 0xfc, 0xff, 0xff, 0x38, 0x00, 0x00, 0x00, 0x73, 0x65, 0x71, 0x75,
  0x65, 0x6e, 0x74, 0x69, 0x61, 0x6c, 0x5f, 0x31, 0x2f, 0x64, 0x65, 0x6e,
  0x73, 0x65, 0x5f, 0x32, 0x5f, 0x31, 0x2f, 0x4d, 0x61, 0x74, 0x4d, 0x75,
  0x6c, 0x3b, 0x73, 0x65, 0x71, 0x75, 0x65, 0x6e, 0x74, 0x69, 0x61, 0x6c,
  0x5f, 0x31, 0x2f, 0x64, 0x65, 0x6e, 0x73, 0x65, 0x5f, 0x32, 0x5f, 0x31,
  0x2f, 0x41, 0x64, 0x64, 0x00, 0x00, 0x00, 0x00, 0x02, 0x00, 0x00, 0x00,
  0x01, 0x00, 0x00, 0x00, 0x01, 0x00, 0x00, 0x00, 0x1a, 0xfd, 0xff, 0xff,
  0x00, 0x00, 0x00, 0x01, 0x14, 0x00, 0x00, 0x00, 0x1c, 0x00, 0x00, 0x00,
  0x1c, 0x00, 0x00, 0x00, 0x09, 0x00, 0x00, 0x00, 0x74, 0x00, 0x00, 0x00,
  0x02, 0x00, 0x00, 0x00, 0xff, 0xff, 0xff, 0xff, 0x08, 0x00, 0x00, 0x00,
  0x04, 0xfd, 0xff, 0xff, 0x58, 0x00, 0x00, 0x00, 0x73, 0x65, 0x71, 0x75,
  0x65, 0x6e, 0x74, 0x69, 0x61, 0x6c, 0x5f, 0x31, 0x2f, 0x64, 0x65, 0x6e,
  0x73, 0x65, 0x5f, 0x31, 0x5f, 0x32, 0x2f, 0x4d, 0x61, 0x74, 0x4d, 0x75,
  0x6c, 0x3b, 0x73, 0x65, 0x71, 0x75, 0x65, 0x6e, 0x74, 0x69, 0x61, 0x6c,
  0x5f, 0x31, 0x2f, 0x64, 0x65, 0x6e, 0x73, 0x65, 0x5f, 0x31, 0x5f, 0x32,
  0x2f, 0x52, 0x65, 0x6c, 0x75, 0x3b, 0x73, 0x65, 0x71, 0x75, 0x65, 0x6e,
  0x74, 0x69, 0x61, 0x6c, 0x5f, 0x31, 0x2f, 0x64, 0x65, 0x6e, 0x73, 0x65,
  0x5f, 0x31, 0x5f, 0x32, 0x2f, 0x42, 0x69, 0x61, 0x73, 0x41, 0x64, 0x64,
  0x00, 0x00, 0x00, 0x00, 0x02, 0x00, 0x00, 0x00, 0x01, 0x00, 0x00, 0x00,
  0x08, 0x00, 0x00, 0x00, 0xb2, 0xfd, 0xff, 0xff, 0x00, 0x00, 0x00, 0x01,
  0x14, 0x00, 0x00, 0x00, 0x1c, 0x00, 0x00, 0x00, 0x1c, 0x00, 0x00, 0x00,
  0x08, 0x00, 0x00, 0x00, 0x6c, 0x00, 0x00, 0x00, 0x02, 0x00, 0x00, 0x00,
  0xff, 0xff, 0xff, 0xff, 0x10, 0x00, 0x00, 0x00, 0x9c, 0xfd, 0xff, 0xff,
  0x52, 0x00, 0x00, 0x00, 0x73, 0x65, 0x71, 0x75, 0x65, 0x6e, 0x74, 0x69,
  0x61, 0x6c, 0x5f, 0x31, 0x2f, 0x64, 0x65, 0x6e, 0x73, 0x65, 0x5f, 0x31,
  0x2f, 0x4d, 0x61, 0x74, 0x4d, 0x75, 0x6c, 0x3b, 0x73, 0x65, 0x71, 0x75,
  0x65, 0x6e, 0x74, 0x69, 0x61, 0x6c, 0x5f, 0x31, 0x2f, 0x64, 0x65, 0x6e,
  0x73, 0x65, 0x5f, 0x31, 0x2f, 0x52, 0x65, 0x6c, 0x75, 0x3b, 0x73, 0x65,
  0x71, 0x75, 0x65, 0x6e, 0x74, 0x69, 0x61, 0x6c, 0x5f, 0x31, 0x2f, 0x64,
  0x65, 0x6e, 0x73, 0x65, 0x5f, 0x31, 0x2f, 0x42, 0x69, 0x61, 0x73, 0x41,
  0x64, 0x64, 0x00, 0x00, 0x02, 0x00, 0x00, 0x00, 0x01, 0x00, 0x00, 0x00,
  0x10, 0x00, 0x00, 0x00, 0x96, 0xfe, 0xff, 0xff, 0x00, 0x00, 0x00, 0x01,
  0x10, 0x00, 0x00, 0x00, 0x10, 0x00, 0x00, 0x00, 0x07, 0x00, 0x00, 0x00,
  0x28, 0x00, 0x00, 0x00, 0x1c, 0xfe, 0xff, 0xff, 0x1b, 0x00, 0x00, 0x00,
  0x73, 0x65, 0x71, 0x75, 0x65, 0x6e, 0x74, 0x69, 0x61, 0x6c, 0x5f, 0x31,
  0x2f, 0x64, 0x65, 0x6e, 0x73, 0x65, 0x5f, 0x31, 0x2f, 0x4d, 0x61, 0x74,
  0x4d, 0x75, 0x6c, 0x00, 0x02, 0x00, 0x00, 0x00, 0x10, 0x00, 0x00, 0x00,
  0x07, 0x00, 0x00, 0x00, 0xde, 0xfe, 0xff, 0xff, 0x00, 0x00, 0x00, 0x01,
  0x10, 0x00, 0x00, 0x00, 0x10, 0x00, 0x00, 0x00, 0x06, 0x00, 0x00, 0x00,
  0x38, 0x00, 0x00, 0x00, 0x64, 0xfe, 0xff, 0xff, 0x2b, 0x00, 0x00, 0x00,
  0x73, 0x65, 0x71, 0x75, 0x65, 0x6e, 0x74, 0x69, 0x61, 0x6c, 0x5f, 0x31,
  0x2f, 0x64, 0x65, 0x6e, 0x73, 0x65, 0x5f, 0x31, 0x2f, 0x42, 0x69, 0x61,
  0x73, 0x41, 0x64, 0x64, 0x2f, 0x52, 0x65, 0x61, 0x64, 0x56, 0x61, 0x72,
  0x69, 0x61, 0x62, 0x6c, 0x65, 0x4f, 0x70, 0x00, 0x01, 0x00, 0x00, 0x00,
  0x10, 0x00, 0x00, 0x00, 0x32, 0xff, 0xff, 0xff, 0x00, 0x00, 0x00, 0x01,
  0x10, 0x00, 0x00, 0x00, 0x10, 0x00, 0x00, 0x00, 0x05, 0x00, 0x00, 0x00,
  0x3c, 0x00, 0x00, 0x00, 0xb8, 0xfe, 0xff, 0xff, 0x2d, 0x00, 0x00, 0x00,
  0x73, 0x65, 0x71, 0x75, 0x65, 0x6e, 0x74, 0x69, 0x61, 0x6c, 0x5f, 0x31,
  0x2f, 0x64, 0x65, 0x6e, 0x73, 0x65, 0x5f, 0x31, 0x5f, 0x32, 0x2f, 0x42,
  0x69, 0x61, 0x73, 0x41, 0x64, 0x64, 0x2f, 0x52, 0x65, 0x61, 0x64, 0x56,
  0x61, 0x72, 0x69, 0x61, 0x62, 0x6c, 0x65, 0x4f, 0x70, 0x00, 0x00, 0x00,
  0x01, 0x00, 0x00, 0x00, 0x08, 0x00, 0x00, 0x00, 0x8a, 0xff, 0xff, 0xff,
  0x00, 0x00, 0x00, 0x01, 0x10, 0x00, 0x00, 0x00, 0x10, 0x00, 0x00, 0x00,
  0x04, 0x00, 0x00, 0x00, 0x1c, 0x00, 0x00, 0x00, 0x10, 0xff, 0xff, 0xff,
  0x0f, 0x00, 0x00, 0x00, 0x61, 0x72, 0x69, 0x74, 0x68, 0x2e, 0x63, 0x6f,
  0x6e, 0x73, 0x74, 0x61, 0x6e, 0x74, 0x32, 0x00, 0x01, 0x00, 0x00, 0x00,
  0x01, 0x00, 0x00, 0x00, 0xc2, 0xff, 0xff, 0xff, 0x00, 0x00, 0x00, 0x01,
  0x10, 0x00, 0x00, 0x00, 0x10, 0x00, 0x00, 0x00, 0x03, 0x00, 0x00, 0x00,
  0x1c, 0x00, 0x00, 0x00, 0x48, 0xff, 0xff, 0xff, 0x0f, 0x00, 0x00, 0x00,
  0x61, 0x72, 0x69, 0x74, 0x68, 0x2e, 0x63, 0x6f, 0x6e, 0x73, 0x74, 0x61,
  0x6e, 0x74, 0x31, 0x00, 0x02, 0x00, 0x00, 0x00, 0x08, 0x00, 0x00, 0x00,
  0x10, 0x00, 0x00, 0x00, 0x00, 0x00, 0x16, 0x00, 0x18, 0x00, 0x14, 0x00,
  0x00, 0x00, 0x10, 0x00, 0x0c, 0x00, 0x08, 0x00, 0x00, 0x00, 0x00, 0x00,
  0x00, 0x00, 0x07, 0x00, 0x16, 0x00, 0x00, 0x00, 0x00, 0x00, 0x00, 0x01,
  0x10, 0x00, 0x00, 0x00, 0x10, 0x00, 0x00, 0x00, 0x02, 0x00, 0x00, 0x00,
  0x1c, 0x00, 0x00, 0x00, 0x9c, 0xff, 0xff, 0xff, 0x0e, 0x00, 0x00, 0x00,
  0x61, 0x72, 0x69, 0x74, 0x68, 0x2e, 0x63, 0x6f, 0x6e, 0x73, 0x74, 0x61,
  0x6e, 0x74, 0x00, 0x00, 0x02, 0x00, 0x00, 0x00, 0x01, 0x00, 0x00, 0x00,
  0x08, 0x00, 0x00, 0x00, 0x00, 0x00, 0x16, 0x00, 0x1c, 0x00, 0x18, 0x00,
  0x00, 0x00, 0x14, 0x00, 0x10, 0x00, 0x0c, 0x00, 0x00, 0x00, 0x00, 0x00,
  0x08, 0x00, 0x07, 0x00, 0x16, 0x00, 0x00, 0x00, 0x00, 0x00, 0x00, 0x01,
  0x14, 0x00, 0x00, 0x00, 0x20, 0x00, 0x00, 0x00, 0x20, 0x00, 0x00, 0x00,
  0x01, 0x00, 0x00, 0x00, 0x3c, 0x00, 0x00, 0x00, 0x02, 0x00, 0x00, 0x00,
  0xff, 0xff, 0xff, 0xff, 0x07, 0x00, 0x00, 0x00, 0x04, 0x00, 0x04, 0x00,
  0x04, 0x00, 0x00, 0x00, 0x1e, 0x00, 0x00, 0x00, 0x73, 0x65, 0x72, 0x76,
  0x69, 0x6e, 0x67, 0x5f, 0x64, 0x65, 0x66, 0x61, 0x75, 0x6c, 0x74, 0x5f,
  0x6b, 0x65, 0x72, 0x61, 0x73, 0x5f, 0x74, 0x65, 0x6e, 0x73, 0x6f, 0x72,
  0x3a, 0x30, 0x00, 0x00, 0x02, 0x00, 0x00, 0x00, 0x01, 0x00, 0x00, 0x00,
  0x07, 0x00, 0x00, 0x00, 0x02, 0x00, 0x00, 0x00, 0x20, 0x00, 0x00, 0x00,
  0x04, 0x00, 0x00, 0x00, 0xf4, 0xff, 0xff, 0xff, 0x0e, 0x00, 0x00, 0x00,
  0x00, 0x00, 0x00, 0x0e, 0x0c, 0x00, 0x0c, 0x00, 0x0b, 0x00, 0x00, 0x00,
  0x00, 0x00, 0x04, 0x00, 0x0c, 0x00, 0x00, 0x00, 0x09, 0x00, 0x00, 0x00,
  0x00, 0x00, 0x00, 0x09
};

#endif // FALL_DETECTION_MODEL_H
